#ifndef MODEL_DATA_H
#define MODEL_DATA_H

const unsigned char model_data[] = {28,0,0,0,84,70,76,51,20,0,32,0,28,0,24,0,20,0,16,0,12,0,0,0,8,0,4,0,20,0,0,0,28,0,0,0,152,0,0,0,240,0,0,0,100,2,0,0,116,2,0,0,8,6,0,0,3,0,0,0,1,0,0,0,16,0,0,0,0,0,10,0,16,0,12,0,8,0,4,0,10,0,0,0,12,0,0,0,28,0,0,0,60,0,0,0,15,0,0,0,115,101,114,118,105,110,103,95,100,101,102,97,117,108,116,0,1,0,0,0,4,0,0,0,144,255,255,255,6,0,0,0,4,0,0,0,8,0,0,0,111,117,116,112,117,116,95,48,0,0,0,0,1,0,0,0,4,0,0,0,82,254,255,255,4,0,0,0,12,0,0,0,107,101,114,97,115,95,116,101,110,115,111,114,0,0,0,0,2,0,0,0,52,0,0,0,4,0,0,0,220,255,255,255,9,0,0,0,4,0,0,0,19,0,0,0,67,79,78,86,69,82,83,73,79,78,95,77,69,84,65,68,65,84,65,0,8,0,12,0,8,0,4,0,8,0,0,0,8,0,0,0,4,0,0,0,19,0,0,0,109,105,110,95,114,117,110,116,105,109,101,95,118,101,114,115,105,111,110,0,10,0,0,0,112,1,0,0,104,1,0,0,48,1,0,0,20,1,0,0,220,0,0,0,164,0,0,0,156,0,0,0,148,0,0,0,116,0,0,0,4,0,0,0,246,254,255,255,4,0,0,0,96,0,0,0,16,0,0,0,0,0,0,0,8,0,14,0,8,0,4,0,8,0,0,0,16,0,0,0,36,0,0,0,0,0,6,0,8,0,4,0,6,0,0,0,4,0,0,0,0,0,0,0,12,0,24,0,20,0,16,0,12,0,4,0,12,0,0,0,137,215,249,204,250,56,247,149,2,0,0,0,2,0,0,0,4,0,0,0,6,0,0,0,50,46,49,56,46,48,0,0,98,255,255,255,4,0,0,0,16,0,0,0,49,46,53,46,48,0,0,0,0,0,0,0,0,0,0,0,200,251,255,255,204,251,255,255,134,255,255,255,4,0,0,0,40,0,0,0,9,5,136,190,20,153,14,63,187,134,24,63,189,41,34,63,249,158,195,62,155,59,247,61,143,168,129,190,83,187,129,62,4,59,16,190,184,226,191,62,186,255,255,255,4,0,0,0,40,0,0,0,0,0,0,0,89,118,168,61,240,178,237,189,142,151,185,187,244,187,245,189,223,254,128,61,0,0,0,0,9,144,119,190,0,0,0,0,40,109,192,61,238,255,255,255,4,0,0,0,4,0,0,0,242,74,210,61,0,0,6,0,8,0,4,0,6,0,0,0,4,0,0,0,40,0,0,0,205,172,191,190,167,180,108,62,181,217,9,191,193,208,41,59,158,82,224,190,73,173,196,61,41,240,48,63,128,252,21,190,66,231,246,190,182,184,28,63,132,252,255,255,136,252,255,255,15,0,0,0,77,76,73,82,32,67,111,110,118,101,114,116,101,100,46,0,1,0,0,0,20,0,0,0,0,0,14,0,24,0,20,0,16,0,12,0,8,0,4,0,14,0,0,0,20,0,0,0,28,0,0,0,160,0,0,0,164,0,0,0,168,0,0,0,4,0,0,0,109,97,105,110,0,0,0,0,2,0,0,0,72,0,0,0,4,0,0,0,206,255,255,255,16,0,0,0,0,0,0,8,12,0,0,0,16,0,0,0,252,252,255,255,1,0,0,0,6,0,0,0,3,0,0,0,5,0,0,0,1,0,0,0,2,0,0,0,0,0,14,0,22,0,0,0,16,0,12,0,11,0,4,0,14,0,0,0,24,0,0,0,0,0,0,8,24,0,0,0,28,0,0,0,0,0,6,0,8,0,7,0,6,0,0,0,0,0,0,1,1,0,0,0,5,0,0,0,3,0,0,0,0,0,0,0,4,0,0,0,3,0,0,0,1,0,0,0,6,0,0,0,1,0,0,0,0,0,0,0,7,0,0,0,96,2,0,0,8,2,0,0,152,1,0,0,64,1,0,0,244,0,0,0,96,0,0,0,4,0,0,0,210,253,255,255,0,0,0,1,20,0,0,0,28,0,0,0,28,0,0,0,7,0,0,0,52,0,0,0,2,0,0,0,255,255,255,255,1,0,0,0,188,253,255,255,27,0,0,0,83,116,97,116,101,102,117,108,80,97,114,116,105,116,105,111,110,101,100,67,97,108,108,95,49,58,48,0,2,0,0,0,1,0,0,0,1,0,0,0,42,254,255,255,0,0,0,1,20,0,0,0,28,0,0,0,28,0,0,0,6,0,0,0,108,0,0,0,2,0,0,0,255,255,255,255,10,0,0,0,20,254,255,255,82,0,0,0,115,101,113,117,101,110,116,105,97,108,95,49,47,100,101,110,115,101,95,49,47,77,97,116,77,117,108,59,115,101,113,117,101,110,116,105,97,108,95,49,47,100,101,110,115,101,95,49,47,82,101,108,117,59,115,101,113,117,101,110,116,105,97,108,95,49,47,100,101,110,115,101,95,49,47,66,105,97,115,65,100,100,0,0,2,0,0,0,1,0,0,0,10,0,0,0,14,255,255,255,0,0,0,1,16,0,0,0,16,0,0,0,5,0,0,0,40,0,0,0,148,254,255,255,27,0,0,0,115,101,113,117,101,110,116,105,97,108,95,49,47,100,101,110,115,101,95,49,47,77,97,116,77,117,108,0,2,0,0,0,10,0,0,0,1,0,0,0,86,255,255,255,0,0,0,1,16,0,0,0,16,0,0,0,4,0,0,0,56,0,0,0,220,254,255,255,43,0,0,0,115,101,113,117,101,110,116,105,97,108,95,49,47,100,101,110,115,101,95,49,47,66,105,97,115,65,100,100,47,82,101,97,100,86,97,114,105,97,98,108,101,79,112,0,1,0,0,0,10,0,0,0,170,255,255,255,0,0,0,1,16,0,0,0,16,0,0,0,3,0,0,0,56,0,0,0,48,255,255,255,41,0,0,0,115,101,113,117,101,110,116,105,97,108,95,49,47,100,101,110,115,101,95,49,95,50,47,65,100,100,47,82,101,97,100,86,97,114,105,97,98,108,101,79,112,0,0,0,1,0,0,0,1,0,0,0,0,0,22,0,24,0,20,0,0,0,16,0,12,0,8,0,0,0,0,0,0,0,7,0,22,0,0,0,0,0,0,1,16,0,0,0,16,0,0,0,2,0,0,0,28,0,0,0,156,255,255,255,14,0,0,0,97,114,105,116,104,46,99,111,110,115,116,97,110,116,0,0,2,0,0,0,1,0,0,0,10,0,0,0,0,0,22,0,28,0,24,0,0,0,20,0,16,0,12,0,0,0,0,0,8,0,7,0,22,0,0,0,0,0,0,1,20,0,0,0,32,0,0,0,32,0,0,0,1,0,0,0,60,0,0,0,2,0,0,0,255,255,255,255,1,0,0,0,4,0,4,0,4,0,0,0,30,0,0,0,115,101,114,118,105,110,103,95,100,101,102,97,117,108,116,95,107,101,114,97,115,95,116,101,110,115,111,114,58,48,0,0,2,0,0,0,1,0,0,0,1,0,0,0,1,0,0,0,16,0,0,0,12,0,12,0,11,0,0,0,0,0,4,0,12,0,0,0,9,0,0,0,0,0,0,9,};
#endif // MODEL_DATA_H
